TRT-8401-EntropyCalibration2
images: 3bf80000
input: 3e089fca
onnx::Mul_123: 3c010a14
onnx::Conv_124: 3d862767
input.4: 3e8e5869
onnx::Mul_126: 3c010a14
onnx::Conv_127: 3dca3494
input.8: 3df0e12e
onnx::Mul_129: 3c0bc38f
onnx::Conv_130: 3d01af7a
input.12: 3cf3bb6e
onnx::Mul_132: 3c016b97
onnx::Conv_133: 3cec8bc6
input.16: 3d9aeff1
onnx::Mul_135: 3c010a14
onnx::Add_136: 3d8e8ad4
onnx::Concat_137: 3d8dee03
input.20: 3e1be876
onnx::Mul_139: 3c010a14
onnx::Concat_140: 3d95511e
input.24: 3d93bae7
input.28: 3da93453
onnx::Mul_143: 3c01b351
onnx::Conv_144: 3d1226d6
input.32: 3d5fc602
onnx::Mul_146: 3bffcd76
onnx::Conv_147: 3cbfa6c7
input.36: 3ce24625
onnx::Mul_149: 3bcfa1f2
onnx::Conv_150: 3bff2687
input.40: 3d168c47
onnx::Mul_152: 3bff6341
onnx::Conv_153: 3d10b125
input.44: 3d00d31e
onnx::Mul_155: 3bf1ef1c
onnx::Add_156: 3c515a2b
input.48: 3c8385e2
input.52: 3d234034
onnx::Mul_159: 3bffba3f
onnx::Conv_160: 3c998d33
input.56: 3d56f9fc
onnx::Mul_162: 3c0141cd
onnx::Add_163: 3d002a76
onnx::Concat_164: 3d2459b4
input.60: 3d2c8ac6
onnx::Mul_166: 3c01ce2a
onnx::Concat_167: 3ce58747
input.64: 3d25e650
input.68: 3d3449a1
onnx::Mul_170: 3c0294a3
onnx::Conv_171: 3c57ed03
input.72: 3d4217df
onnx::Mul_173: 3bfea0d4
onnx::Conv_174: 3c516745
input.76: 3ce8b3fd
onnx::Mul_176: 3bef7e03
onnx::Conv_177: 3c1fdcc9
input.80: 3d39e747
onnx::Mul_179: 3c017f50
onnx::Conv_180: 3d124c7d
input.84: 3d206447
onnx::Mul_182: 3bf9a007
onnx::Add_183: 3c31a103
input.88: 3cfef3af
input.92: 3d518ec6
onnx::Mul_186: 3c05e9a4
onnx::Conv_187: 3cec3134
input.96: 3d5cd118
onnx::Mul_189: 3c00a237
onnx::Add_190: 3c9a8b83
input.100: 3d55e670
input.104: 3d6c62ce
onnx::Mul_193: 3c05d123
onnx::Conv_194: 3c9e4fac
input.108: 3da2a8dd
onnx::Mul_196: 3c0ae78a
onnx::Add_197: 3d2618e3
onnx::Concat_198: 3d7a52c2
input.112: 3d431743
onnx::Mul_200: 3c084556
onnx::Concat_201: 3cd08c63
input.116: 3d27dd24
input.120: 3d793b20
onnx::Mul_204: 3c06600c
onnx::Conv_205: 3ca697c6
input.124: 3d7445fa
onnx::Mul_207: 3c0095e1
onnx::Conv_208: 3cb35ce4
input.128: 3d34ef73
onnx::Mul_210: 3c007baa
onnx::Conv_211: 3be91fef
input.132: 3da57e79
onnx::Mul_213: 3c024183
onnx::Conv_214: 3cc7f4f6
input.136: 3daf6094
onnx::Mul_216: 3c0bd385
onnx::Add_217: 3d10a6b1
onnx::Concat_218: 3d8ff02c
input.140: 3d81c5fd
onnx::Mul_220: 3c0163f2
onnx::Concat_221: 3cebf4f1
input.144: 3d0ed5ca
input.148: 3d9ae978
onnx::Mul_224: 3c010ad1
onnx::Conv_225: 3cd18342
input.152: 3d511746
onnx::Mul_227: 3c007a35
onnx::MaxPool_228: 3d41a26b
onnx::MaxPool_229: 3d41a26b
onnx::MaxPool_230: 3d41a26b
onnx::Concat_231: 3d41a26b
input.156: 3d653698
input.160: 3d5e4b64
onnx::Mul_234: 3c03c920
onnx::Conv_235: 3cb3d13c
input.164: 3d82ae16
onnx::Mul_237: 3c010d71
onnx::Resize_238: 3ce95d8a
onnx::Concat_243: 3ce95d8a
input.168: 3cd42a56
input.172: 3d4d7a4a
onnx::Mul_246: 3c001c47
onnx::Conv_247: 3ca6ccf2
input.176: 3d598856
onnx::Mul_249: 3c00fc81
onnx::Conv_250: 3cd49885
input.180: 3d878c36
onnx::Mul_252: 3c02a774
onnx::Concat_253: 3c99a17e
input.184: 3d4cba88
onnx::Mul_255: 3c0105b7
onnx::Concat_256: 3c8fdc6b
input.188: 3c99a17e
input.192: 3d9507f9
onnx::Mul_259: 3c028bfd
onnx::Conv_260: 3ceaedc4
input.196: 3d54b3f7
onnx::Mul_262: 3c02d0ff
onnx::Resize_263: 3cbfefce
onnx::Concat_268: 3cbfefce
input.200: 3c993a68
input.204: 3d386c28
onnx::Mul_271: 3bf6897c
onnx::Conv_272: 3c525388
input.208: 3d2a6198
onnx::Mul_274: 3bfe4179
onnx::Conv_275: 3c881544
input.212: 3d964fca
onnx::Mul_277: 3c00dfc0
onnx::Concat_278: 3d278285
input.216: 3d5342d6
onnx::Mul_280: 3c0011ad
onnx::Concat_281: 3d10cbe1
input.220: 3d272ba0
input.224: 3e31923e
onnx::Mul_284: 3c010a14
onnx::Conv_285: 3d90cbc9
input.228: 3d726bb5
onnx::Mul_287: 3c01e8d6
onnx::Concat_288: 3ce80281
input.232: 3ce7ae14
input.236: 3d5c847a
onnx::Mul_291: 3c03762f
onnx::Conv_292: 3cc1b055
input.240: 3d535d6e
onnx::Mul_294: 3c045288
onnx::Conv_295: 3c7f3687
input.244: 3dad4720
onnx::Mul_297: 3c0110f3
onnx::Concat_298: 3ce6853d
input.248: 3d67c359
onnx::Mul_300: 3c003046
onnx::Concat_301: 3d100357
input.252: 3ce63890
input.256: 3e2055e6
onnx::Mul_304: 3c010a14
onnx::Conv_305: 3d92434f
input.260: 3d8c1f30
onnx::Mul_307: 3c03ba5e
onnx::Concat_308: 3d01302f
input.264: 3cd35bcd
input.268: 3d8f2d20
onnx::Mul_311: 3c0bcc02
onnx::Conv_312: 3ceb929c
input.272: 3d8f7306
onnx::Mul_314: 3c052a79
onnx::Conv_315: 3ceacac1
input.276: 3db0920e
onnx::Mul_317: 3c02d575
onnx::Concat_318: 3d0194cf
input.280: 3d831a8f
onnx::Mul_320: 3c00c889
onnx::Concat_321: 3d0165cd
input.284: 3d12d466
input.288: 3e06ce11
onnx::Mul_324: 3c053a61
onnx::Conv_325: 3d1028e2
onnx::Reshape_326: 3e1af4a8
onnx::Sigmoid_339: 3e1af4a8
y: 3bbc279d
onnx::Mul_341: 3c000cb0
onnx::Mul_342: 3c04c2d8
onnx::Concat_343: 3ae2d6fe
(Unnamed Layer* 204) [Shuffle]_output: 3c810a14
onnx::Add_345: 3c800cb0
(Unnamed Layer* 206) [Constant]_output: 3f1e465d
onnx::Mul_347: 3f207b20
(Unnamed Layer* 209) [Shuffle]_output: 3d810a14
onnx::Concat_349: 40a07b20
(Unnamed Layer* 211) [Shuffle]_output: 3c810a14
onnx::Pow_351: 3c84c2d8
(Unnamed Layer* 213) [Shuffle]_output: 3c810a14
onnx::Mul_353: 3d00a51e
(Unnamed Layer* 215) [Constant]_output: 3e851265
onnx::Concat_355: 3f7ce79c
onnx::Reshape_356: 40a07b20
onnx::Concat_363: 40a07b20
onnx::Reshape_364: 3dfba643
onnx::Sigmoid_377: 3dfba643
y.3: 3b9f5d84
onnx::Mul_379: 3c03edf0
onnx::Mul_380: 3c009318
onnx::Concat_381: 3ae9d70b
(Unnamed Layer* 226) [Shuffle]_output: 3c810a14
onnx::Add_383: 3c83edf0
(Unnamed Layer* 228) [Constant]_output: 3e9b4020
onnx::Mul_385: 3eac5cc1
(Unnamed Layer* 231) [Shuffle]_output: 3e010a14
onnx::Concat_387: 40ac5cc1
(Unnamed Layer* 233) [Shuffle]_output: 3c810a14
onnx::Pow_389: 3c809318
(Unnamed Layer* 235) [Shuffle]_output: 3c810a14
onnx::Mul_391: 3cfe2ce7
(Unnamed Layer* 237) [Constant]_output: 3f6feebd
onnx::Concat_393: 40648e97
onnx::Reshape_394: 40ac5cc1
onnx::Concat_401: 40ac5cc1
onnx::Reshape_402: 3e0043fc
onnx::Sigmoid_415: 3e0043fc
y.7: 3b79b51a
onnx::Mul_417: 3c032079
onnx::Mul_418: 3c055256
onnx::Concat_419: 3af7b554
(Unnamed Layer* 248) [Shuffle]_output: 3c810a14
onnx::Add_421: 3c832079
(Unnamed Layer* 250) [Constant]_output: 3e1533a7
onnx::Mul_423: 3e216e62
(Unnamed Layer* 253) [Shuffle]_output: 3e810a14
onnx::Concat_425: 40a16e62
(Unnamed Layer* 255) [Shuffle]_output: 3c810a14
onnx::Pow_427: 3c855256
(Unnamed Layer* 257) [Shuffle]_output: 3c810a14
onnx::Mul_429: 3cff6d90
(Unnamed Layer* 259) [Constant]_output: 403c03af
onnx::Concat_431: 40c10386
onnx::Reshape_432: 409e5711
onnx::Concat_439: 409e5711
onnx::Slice_440: 40a07b20
TRT::EfficientNMS_TRT_445: 40a07b20
onnx::Mul_450: 3b6f3cc8
onnx::Mul_455: 3af8ad86
TRT::EfficientNMS_TRT_456: 3aad71cd
num_dets: 3e810a14
det_boxes: 40a5617a
det_scores: 3bf15cd8
det_classes: 3f7a0387
